#ifndef __HX83102E_PARAM_H__
#define __HX83102E_PARAM_H__
#include <linux/types.h>
#include <linux/kernel.h>

#define EXTEND_BRIGHTNESS	306
#define UI_MAX_BRIGHTNESS	255
#define UI_DEFAULT_BRIGHTNESS	128

struct lcd_seq_info {
	const unsigned char	*cmd;
	unsigned int	len;
	unsigned int	sleep;
};

static const unsigned char SEQ_SET_B9_PW[] = {
	0xB9,
	0x83, 0x10, 0x2E,
};

static const unsigned char SEQ_SET_E9_OTP_SETTING[] = {
	0xE9,
	0xCD,
};

static const unsigned char SEQ_SET_BB_OTP_SETTING[] = {
	0xBB,
	0x01,
};

static const unsigned char SEQ_SET_E9_OTP_SETTING2[] = {
	0xE9,
	0x00,
};

static const unsigned char SEQ_HX83102E_BL[] = {
	0x51,
	0x00, 0x00,
};

static const unsigned char SEQ_HX83102E_BLON[] = {
	0x53,
	0x24,
};

static const unsigned char SEQ_HX83102E_BL_PWM_PREQ[] = {
	0xC9,
	0x04, 0x0B, 0x5D,
};

static const unsigned char SEQ_SET_D2_VOP[] = {
	0xD2,
	0x29, 0x29,
};

static const unsigned char SEQ_HX83102E_BL_PAD[] = {
	0xD9,
	0x00, 0x01, 0x02,
};

static const unsigned char SEQ_SET_D5_GIP_FORWARD[] = {
	0xD5,
	0x03, 0x02, 0x03, 0x02, 0x18, 0x18, 0x18, 0x18,
	0x19, 0x19, 0x19, 0x19, 0x19, 0x19, 0x19, 0x19,
	0x24, 0x24, 0x24, 0x24, 0x18, 0x18, 0x18, 0x18,
	0x01, 0x00, 0x01, 0x00, 0x07, 0x06, 0x07, 0x06,
	0x05, 0x04, 0x05, 0x04, 0x21, 0x20, 0x21, 0x20,
	0x23, 0x22, 0x23, 0x22,
};

static const unsigned char SEQ_SET_D6_GIP_BACKWARD[] = {
	0xD6,
	0x04, 0x05, 0x04, 0x05, 0x18, 0x18, 0x18, 0x18,
	0x19, 0x19, 0x19, 0x19, 0x18, 0x18, 0x18, 0x18,
	0x24, 0x24, 0x24, 0x24, 0x19, 0x19, 0x19, 0x19,
	0x06, 0x07, 0x06, 0x07, 0x00, 0x01, 0x00, 0x01,
	0x02, 0x03, 0x02, 0x03, 0x22, 0x23, 0x22, 0x23,
	0x20, 0x21, 0x20, 0x21,
};

static const unsigned char SEQ_SET_B4_TIMING[] = {
	0xB4,
	0x98, 0x74, 0x01, 0x01, 0x98, 0x74, 0x68, 0x50,
	0x01, 0xA0, 0x01, 0x58, 0x00, 0xFF, 0x00, 0xFF,
};

static const unsigned char SEQ_SET_D3_GIP0[] = {
	0xD3,
	0x00, 0x00, 0x00, 0x00, 0x01, 0x04, 0x00, 0x08,
	0x08, 0x27, 0x27, 0x22, 0x2F, 0x11, 0x11, 0x04,
	0x04, 0x32, 0x10, 0x0F, 0x00, 0x0F, 0x32, 0x10,
	0x0D, 0x00, 0x02, 0x32, 0x17, 0x9B, 0x00, 0x10,
	0x00, 0x00, 0x21, 0x2F, 0x01, 0x00, 0x21, 0x38,
	0x01, 0x55,
};

static const unsigned char SEQ_SET_D1_TP_CTRL[] = {
	0xD1,
	0x37, 0x0C, 0xFF,
};

static const unsigned char SEQ_SET_B1_POWER[] = {
	0xB1,
	0x20, 0xFA, 0xAF, 0xAF, 0x29, 0x29, 0xC2, 0x6B,
	0x4D, 0x36, 0x36, 0x36, 0x36, 0x22, 0x21, 0x15,
	0x00,
};

static const unsigned char SEQ_SET_B2_RESOLUTION[] = {
	0xB2,
	0x00, 0xB0, 0x47, 0x80, 0x00, 0x14, 0x3C, 0x2C,
};

static const unsigned char SEQ_SET_E0_ANALOG_GAMMA[] = {
	0xE0,
	0x00, 0x04, 0x0B, 0x11, 0x17, 0x25, 0x3D, 0x43,
	0x4B, 0x48, 0x64, 0x6C, 0x74, 0x82, 0x81, 0x88,
	0x9B, 0xAE, 0xAD, 0x56, 0x5D, 0x68, 0x73, 0x00,
	0x04, 0x0B, 0x11, 0x17, 0x25, 0x3D, 0x43, 0x4B,
	0x48, 0x64, 0x6C, 0x74, 0x89, 0x8A, 0x99, 0x9B,
	0xAE, 0xAD, 0x56, 0x5D, 0x68, 0x73,
};

static const unsigned char SEQ_SET_C0_GAMMA_OPT[] = {
	0xC0,
	0x23, 0x23, 0x22, 0x11, 0xA2, 0x17, 0x00, 0x80,
	0x00, 0x00, 0x08, 0x00, 0x22, 0x22,
};

static const unsigned char SEQ_SET_CC_NORMALLY_BLACK[] = {
	0xCC,
	0x02,
};

static const unsigned char SEQ_SET_C8_CP[] = {
	0xC8,
	0x00, 0x04, 0x04, 0x00, 0x00, 0x82,
};

static const unsigned char SEQ_SET_BF_GAS[] = {
	0xBF,
	0xFC, 0x85, 0x80,
};

static const unsigned char SEQ_SET_D0_CASCADE[] = {
	0xD0,
	0x07, 0x04, 0x05,
};

static const unsigned char SEQ_SET_BD_BANK01[] = {
	0xBD,
	0x01,
};

static const unsigned char SEQ_SET_D3_GIP1[] = {
	0xD3,
	0x01, 0x00, 0xFC, 0x00, 0x00, 0x11, 0x10, 0x00,
	0x0E,
};

static const unsigned char SEQ_SET_BD_BANK02[] = {
	0xBD,
	0x02,
};

static const unsigned char SEQ_SET_B4_GAMMA_BIAS[] = {
	0xB4,
	0x4E,
};

static const unsigned char SEQ_SET_BF_VCOM[] = {
	0xBF,
	0xF2,
};

static const unsigned char SEQ_SET_D8_GIP[] = {
	0xD8,
	0xFF, 0xFF, 0xFF, 0xFF, 0xFF, 0xF0, 0xFF, 0xFF,
	0xFF, 0xFF, 0xFF, 0xF0,
};

static const unsigned char SEQ_SET_BD_BANK00[] = {
	0xBD,
	0x00,
};

static const unsigned char SEQ_SET_BD_BANK03[] = {
	0xBD,
	0x03,
};

static const unsigned char SEQ_SET_E7_TOUCH_BANK0[] = {
	0xE7,
	0x12, 0x13, 0x02, 0x02, 0x2C, 0x2C, 0x0E, 0x0E,
	0x00, 0x15, 0x26, 0x7C, 0x1A, 0x78, 0x01, 0x01,
	0x00, 0x00, 0x00, 0x00, 0x17, 0x00,
};

static const unsigned char SEQ_SET_E7_TOUCH_BANK1[] = {
	0xE7,
	0x02, 0x24, 0x01, 0x8B, 0x0D, 0xE2, 0x0E,
};

static const unsigned char SEQ_SET_E7_TOUCH_BANK2[] = {
	0xE7,
	0xFF, 0x01, 0xFD, 0x01, 0x00, 0x00, 0x22, 0x00,
	0x00, 0x00, 0x00, 0x00, 0x00, 0x00, 0x00, 0x00,
	0x00, 0x00, 0x00, 0x00, 0x00, 0x00, 0x00, 0x00,
	0x81, 0x00, 0x02, 0x40,
};

static const unsigned char SEQ_SET_C1_DGC_ON[] = {
	0xC1,
	0x01,
};

static const unsigned char SEQ_SET_C1_DGC_GAMMA1[] = {
	0xC1,
	0x00, 0x03, 0x07, 0x0B, 0x0F, 0x12, 0x16, 0x1A,
	0x1E, 0x22, 0x26, 0x2A, 0x2D, 0x30, 0x34, 0x39,
	0x3D, 0x40, 0x44, 0x48, 0x4F, 0x57, 0x5F, 0x67,
	0x6F, 0x77, 0x7F, 0x86, 0x8E, 0x96, 0x9E, 0xA5,
	0xAE, 0xB5, 0xBD, 0xC4, 0xCC, 0xD4, 0xDC, 0xE4,
	0xEC, 0xF0, 0xF2, 0xF4, 0xF5, 0xF7, 0x25, 0x29,
	0x50, 0xBC, 0x38, 0xFE, 0x53, 0xB9, 0x33, 0xF5,
	0x40, 0xC0,
};

static const unsigned char SEQ_SET_C1_DGC_GAMMA2[] = {
	0xC1,
	0x00, 0x03, 0x07, 0x0B, 0x0F, 0x13, 0x17, 0x1A,
	0x1F, 0x23, 0x26, 0x2A, 0x2E, 0x32, 0x36, 0x3A,
	0x3E, 0x42, 0x46, 0x49, 0x52, 0x5A, 0x62, 0x6A,
	0x72, 0x7A, 0x82, 0x8A, 0x92, 0x9A, 0xA2, 0xA9,
	0xB2, 0xB9, 0xC0, 0xC9, 0xD1, 0xD9, 0xE1, 0xE9,
	0xF1, 0xF5, 0xF7, 0xF9, 0xFB, 0xFD, 0x3A, 0x83,
	0x4F, 0x80, 0x93, 0x00, 0x10, 0x63, 0x6B, 0xAF,
	0xAF, 0xC0,

};

static const unsigned char SEQ_SET_C1_DGC_GAMMA3[] = {
	0xC1,
	0x00, 0x03, 0x07, 0x0C, 0x10, 0x13, 0x18, 0x1C,
	0x20, 0x24, 0x28, 0x2C, 0x30, 0x33, 0x38, 0x3C,
	0x40, 0x44, 0x48, 0x4C, 0x54, 0x5C, 0x64, 0x6C,
	0x74, 0x7C, 0x84, 0x8C, 0x94, 0x9C, 0xA4, 0xAC,
	0xB4, 0xBA, 0xC3, 0xCB, 0xD3, 0xDB, 0xE3, 0xEB,
	0xF3, 0xF7, 0xF9, 0xFB, 0xFD, 0xFF, 0x3C, 0x20,
	0x55, 0x31, 0x50, 0xAB, 0xFE, 0xF5, 0x77, 0x86,
	0x5A, 0xC0,

};

static const unsigned char SEQ_SET_B9_CLOSE_PW[] = {
	0xB9,
	0x00, 0x00, 0x00,
};

static const unsigned char SEQ_SLEEP_OUT[] = {
	0x11,
};

static const unsigned char SEQ_DISPLAY_ON[] = {
	0x29,
};

static const unsigned char SEQ_DISPLAY_OFF[] = {
	0x28,
	0x00, 0x00
};

static const unsigned char SEQ_SLEEP_IN[] = {
	0x10,
	0x00, 0x00
};

static const unsigned char SEQ_SET_E9_VSOM_SOFT1[] = {
	0xE9,
	0xFF,
};

static const unsigned char SEQ_SET_BF_VSOM_SOFT[] = {
	0xBF,
	0x02,
};

static const unsigned char SEQ_SET_E9_VSOM_SOFT2[] = {
	0xE9,
	0x00,
};

/* platform brightness <-> bl reg */
static unsigned int brightness_table[EXTEND_BRIGHTNESS + 1] = {
	0,
	0, 0, 29, 39, 50, 60, 71, 82, 92, 103, /* 3: 29 */
	114, 124, 135, 145, 156, 167, 177, 188, 199, 209,
	220, 231, 241, 252, 262, 273, 284, 294, 305, 316,
	326, 337, 347, 358, 369, 379, 390, 401, 411, 422,
	433, 443, 454, 464, 475, 486, 496, 507, 518, 528,
	539, 549, 560, 571, 581, 592, 603, 613, 624, 635,
	645, 656, 666, 677, 688, 698, 709, 720, 730, 741,
	751, 762, 773, 783, 794, 805, 815, 826, 837, 847,
	858, 868, 879, 890, 900, 911, 922, 932, 943, 953,
	964, 975, 985, 996, 1007, 1017, 1028, 1039, 1049, 1060,
	1070, 1081, 1092, 1102, 1113, 1124, 1134, 1145, 1155, 1166,
	1177, 1187, 1198, 1209, 1219, 1230, 1241, 1251, 1261, 1271, /* 117: 1241 */
	1281, 1291, 1301, 1311, 1321, 1331, 1341, 1351, 1361, 1371,
	1381, 1391, 1401, 1411, 1421, 1431, 1441, 1451, 1461, 1471,
	1481, 1491, 1501, 1511, 1521, 1531, 1541, 1551, 1561, 1571,
	1581, 1591, 1601, 1611, 1621, 1631, 1641, 1651, 1661, 1671,
	1681, 1691, 1701, 1711, 1721, 1731, 1741, 1751, 1761, 1771,
	1781, 1791, 1801, 1811, 1821, 1831, 1841, 1851, 1861, 1871,
	1881, 1891, 1901, 1911, 1921, 1931, 1941, 1951, 1961, 1971,
	1981, 1991, 2001, 2011, 2021, 2031, 2041, 2051, 2061, 2071,
	2081, 2091, 2101, 2111, 2121, 2131, 2141, 2151, 2161, 2171,
	2181, 2191, 2201, 2211, 2221, 2231, 2241, 2251, 2261, 2271,
	2281, 2291, 2301, 2311, 2321, 2331, 2341, 2351, 2361, 2371,
	2381, 2391, 2401, 2411, 2421, 2431, 2441, 2451, 2461, 2471,
	2481, 2491, 2501, 2511, 2521, 2531, 2541, 2551, 2561, 2571,
	2581, 2591, 2601, 2611, 2621, 2621, 2621, 2621, 2621, 2621, /* 255: 2621 */
	2621, 2621, 2621, 2621, 2621, 2621, 2621, 2621, 2621, 2621,
	2621, 2621, 2621, 2621, 2621, 2621, 2621, 2621, 2621, 2621,
	2621, 2621, 2621, 2621, 2621, 2621, 2621, 2621, 2621, 2621,
	2621, 2621, 2621, 2621, 2621, 2621, 2621, 2621, 2621, 2621,
	2621, 2621, 2621, 2621, 2621, 3604,
};
#endif /* __HX83102E_PARAM_H__ */
